1100000111011010
0100000000101100
0011100100110100
1100010001000111
0100000100110101
1100011100101010
1100000101111101
1100010100110110
0100001010101111
0100001010100000
1010101001110010
0100001000111001
0011101110011111
0011111010100010
1100001011010101
0011100010111010
1011110101011100
1100011111000010
0011101101110000
1100000111111010
0011101110101111
0100000001100001
0100011011010101
1100000111101100
1100000110000010
1011111100001111
1100011010100100
0100001000100110
1100000000010101
1100001111100110
1100010000100001
0100001001100010
1100001101100000
0100010011000010
1100010001011100
1011111011100001
1100010101000111
0011111101110110
1100001000011011
0100000101111101
0011101100010011
1100011111011111
1100000001111100
1100010011111101
1011110011000111
0100000101100110
1011000110001000
1011110001100100
1100010011110000
0100001011101111
1100010011011100
0100010000010110
1011110101101011
1100000101100111
0100001100000110
0100011010100111
1100011010111001
1100000011000000
0011100010011101
1100000010100011
0100000110011101
0100000001110110
1100011101010011
1100001101010111
0100001000110011
1100010010001011
1011111111100101
1011110101111000
1100010001111000
1100000100100001
1100010101000111
1100100100011110
0100001100000011
0011101010010000
1100000010110111
0011011010100001
0011100101010111
0100000001000110
0011111001010100
1011111010001110
0100010010011100
0100001001011010
1100011001111000
1100001011101101
1100010011101101
0011101011111111
1100100100001010
0100000110010101
0100000110111000
0011110011111011
0100011000010010
1100010111111111
1100011001010010
0100001110100111
0100000100111110
1011111010111100
1100100000101000
1100000010101001
0100001111100001
0011010101111111
